<unk>	0
<s>	0
</s>	0
▁t	-0
▁a	-1
in	-2
he	-3
▁s	-4
▁w	-5
▁I	-6
▁m	-7
re	-8
on	-9
▁b	-10
ha	-11
nd	-12
ou	-13
ing	-14
▁f	-15
▁i	-16
▁to	-17
ve	-18
▁d	-19
▁the	-20
▁c	-21
ll	-22
▁l	-23
▁and	-24
or	-25
st	-26
▁g	-27
▁p	-28
ed	-29
▁o	-30
er	-31
it	-32
an	-33
▁n	-34
▁ha	-35
me	-36
▁be	-37
▁my	-38
▁e	-39
hat	-40
▁th	-41
le	-42
se	-43
▁of	-44
▁y	-45
ow	-46
▁me	-47
ay	-48
▁in	-49
is	-50
ar	-51
ot	-52
▁it	-53
ke	-54
at	-55
▁h	-56
▁so	-57
.0	-58
as	-59
ut	-60
en	-61
▁he	-62
▁li	-63
▁that	-64
▁you	-65
▁on	-66
ver	-67
▁re	-68
al	-69
ly	-70
ic	-71
,0	-72
,0.0	-73
es	-74
▁is	-75
id	-76
ee	-77
▁j	-78
out	-79
▁for	-80
▁u	-81
▁an	-82
ld	-83
ust	-84
▁st	-85
all	-86
gh	-87
oo	-88
ri	-89
et	-90
ad	-91
▁have	-92
,"	-93
om	-94
nt	-95
▁just	-96
▁do	-97
▁was	-98
ch	-99
ith	-100
ion	-101
▁but	-102
▁k	-103
▁with	-104
th	-105
one	-106
op	-107
ck	-108
ant	-109
▁this	-110
ally	-111
▁T	-112
ir	-113
▁like	-114
ill	-115
▁we	-116
▁not	-117
ght	-118
▁some	-119
ould	-120
▁ab	-121
ss	-122
▁wh	-123
▁don	-124
ct	-125
ce	-126
▁A	-127
her	-128
▁ne	-129
eel	-130
end	-131
..	-132
▁any	-133
▁can	-134
▁feel	-135
ra	-136
▁1	-137
▁su	-138
▁as	-139
ore	-140
▁at	-141
▁S	-142
▁want	-143
▁get	-144
▁go	-145
pp	-146
▁kn	-147
lf	-148
very	-149
au	-150
▁de	-151
""	-152
▁al	-153
▁out	-154
fe	-155
",0.0	-156
▁all	-157
ro	-158
▁or	-159
▁about	-160
▁know	-161
ime	-162
ake	-163
riend	-164
ter	-165
▁sh	-166
thing	-167
▁up	-168
king	-169
ear	-170
▁wor	-171
▁whe	-172
▁are	-173
ause	-174
▁she	-175
▁her	-176
▁W	-177
▁what	-178
ost	-179
▁fu	-180
▁bec	-181
ry	-182
am	-183
are	-184
▁if	-185
▁M	-186
▁time	-187
ur	-188
▁pe	-189
▁friend	-190
▁2	-191
art	-192
ople	-193
ome	-194
⠀⠀	-195
im	-196
self	-197
▁am	-198
ent	-199
▁because	-200
ven	-201
▁they	-202
▁te	-203
ge	-204
▁every	-205
▁people	-206
ast	-207
▁B	-208
▁ex	-209
▁no	-210
han	-211
ru	-212
rou	-213
▁year	-214
▁life	-215
▁(	-216
▁con	-217
",	-218
ive	-219
ind	-220
▁thin	-221
▁really	-222
ool	-223
rom	-224
▁when	-225
▁now	-226
ers	-227
ood	-228
▁had	-229
▁been	-230
ays	-231
ain	-232
▁H	-233
▁sa	-234
▁would	-235
▁one	-236
te	-237
ation	-238
ight	-239
▁The	-240
▁thing	-241
▁myself	-242
▁who	-243
▁lo	-244
▁how	-245
ress	-246
▁even	-247
▁your	-248
il	-249
ate	-250
▁see	-251
ble	-252
ep	-253
1.0	-254
▁fuck	-255
▁from	-256
▁mu	-257
chool	-258
▁com	-259
▁did	-260
our	-261
▁3	-262
▁di	-263
ong	-264
ack	-265
▁se	-266
▁them	-267
▁think	-268
▁will	-269
lt	-270
ess	-271
▁make	-272
▁gu	-273
▁school	-274
▁N	-275
od	-276
▁tal	-277
▁friends	-278
▁happ	-279
▁got	-280
ide	-281
▁F	-282
▁""	-283
▁there	-284
▁pl	-285
ther	-286
lp	-287
▁cl	-288
▁It	-289
▁D	-290
▁le	-291
",1.0	-292
▁fe	-293
▁ag	-294
▁r	-295
▁5	-296
▁thou	-297
red	-298
⣿⣿	-299
ting	-300
▁4	-301
▁pro	-302
▁going	-303
,,0.0	-304
▁him	-305
sh	-306
▁day	-307
ving	-308
ci	-309
▁gir	-310
...	-311
▁help	-312
▁more	-313
▁has	-314
▁sp	-315
▁other	-316
um	-317
ine	-318
day	-319
▁much	-320
qu	-321
▁say	-322
▁dep	-323
ist	-324
▁only	-325
▁6	-326
▁E	-327
ame	-328
▁C	-329
▁too	-330
▁good	-331
▁never	-332
▁could	-333
▁po	-334
▁v	-335
▁being	-336
ked	-337
sed	-338
▁start	-339
ort	-340
▁need	-341
na	-342
ag	-343
▁10	-344
▁depress	-345
ks	-346
ig	-347
▁af	-348
▁im	-349
▁8	-350
▁back	-351
so	-352
▁7	-353
and	-354
▁9	-355
▁fa	-356
▁love	-357
nts	-358
▁try	-359
ice	-360
ade	-361
ys	-362
▁than	-363
▁O	-364
▁something	-365
▁over	-366
▁then	-367
▁stu	-368
ous	-369
▁by	-370
▁L	-371
▁things	-372
nn	-373
▁off	-374
ie	-375
▁years	-376
▁P	-377
▁int	-378
▁bet	-379
pt	-380
▁girl	-381
▁Y	-382
ard	-383
ul	-384
ip	-385
ile	-386
▁aw	-387
▁still	-388
own	-389
other	-390
.",0.0	-391
▁en	-392
▁pre	-393
▁loo	-394
▁thought	-395
▁anything	-396
ose	-397
▁shit	-398
▁here	-399
▁My	-400
▁does	-401
▁jo	-402
▁act	-403
▁fucking	-404
▁someone	-405
ff	-406
▁end	-407
▁tell	-408
ity	-409
ually	-410
ish	-411
▁post	-412
ways	-413
▁G	-414
▁But	-415
▁And	-416
▁man	-417
▁talk	-418
▁were	-419
right	-420
be	-421
▁qu	-422
▁sc	-423
▁way	-424
tt	-425
ure	-426
un	-427
ass	-428
▁ad	-429
▁us	-430
erson	-431
▁said	-432
hing	-433
int	-434
us	-435
ite	-436
▁into	-437
▁didn	-438
▁wee	-439
ment	-440
▁better	-441
0,	-442
ily	-443
1,	-444
irst	-445
▁after	-446
▁person	-447
6,	-448
7,	-449
ect	-450
dit	-451
8,	-452
⠀⠀⠀⠀	-453
▁ke	-454
2,	-455
ac	-456
▁un	-457
5,	-458
ies	-459
▁his	-460
round	-461
9,	-462
▁take	-463
▁always	-464
4,	-465
est	-466
3,	-467
▁ch	-468
fore	-469
▁should	-470
▁feeling	-471
▁har	-472
ab	-473
▁right	-474
ick	-475
▁again	-476
ol	-477
▁mon	-478
aking	-479
▁&	-480
▁care	-481
▁lit	-482
sp	-483
▁ever	-484
▁	-485
e	-486
t	-487
o	-488
a	-489
n	-490
i	-491
s	-492
h	-493
r	-494
l	-495
d	-496
m	-497
u	-498
y	-499
g	-500
w	-501
c	-502
f	-503
,	-504
p	-505
.	-506
I	-507
b	-508
k	-509
v	-510
0	-511
'	-512
"	-513
1	-514
j	-515
T	-516
’	-517
A	-518
S	-519
2	-520
3	-521
?	-522
5	-523
x	-524
4	-525
E	-526
6	-527
7	-528
8	-529
9	-530
M	-531
H	-532
W	-533
N	-534
O	-535
D	-536
-	-537
!	-538
B	-539
)	-540
⠀	-541
/	-542
(	-543
R	-544
L	-545
F	-546
C	-547
:	-548
Y	-549
⣿	-550
;	-551
P	-552
G	-553
z	-554
*	-555
U	-556
&	-557
q	-558
K	-559
J	-560
V	-561
“	-562
”	-563
_	-564
[	-565
]	-566
⠂	-567
#	-568
=	-569
\	-570
⠿	-571
⠄	-572
%	-573
⣶	-574
⣀	-575
Q	-576
⠉	-577
⣤	-578
⠛	-579
X	-580
Z	-581
️	-582
🟦	-583
$	-584
👏	-585
+	-586
~	-587
😎	-588
🦀	-589
‍	-590
^	-591
📜	-592
🍪	-593
́	-594
❤	-595
‘	-596
⢀	-597
😔	-598
⠁	-599
⠈	-600
😭	-601
😳	-602
🏻	-603
─	-604
⢸	-605
⡀	-606
⡿	-607
⣭	-608
⢿	-609
⣾	-610
•	-611
💕	-612
😍	-613
—	-614
⣷	-615
🏽	-616
⠋	-617
⬛	-618
🍕	-619
😤	-620
⠶	-621
⣉	-622
⣴	-623
̈	-624
⠤	-625
⡇	-626
👩	-627
̀	-628
😫	-629
̬	-630
♀	-631
⠙	-632
⣄	-633
⣠	-634
⬜	-635
💦	-636
é	-637
̄	-638
⠟	-639
⠻	-640
😩	-641
🥖	-642
̖	-643
♂	-644
💀	-645
°	-646
̣	-647
̱	-648
⠒	-649
͝	-650
⣛	-651
🏼	-652
ᅠ	-653
😏	-654
̓	-655
̟	-656
̭	-657
͗	-658
⠃	-659
⣦	-660
👧	-661
😂	-662
🤩	-663
̥	-664
̯	-665
̺	-666
͉	-667
͎	-668
͔	-669
👍	-670
🙄	-671
|	-672
̘	-673
̠	-674
̤	-675
̮	-676
̵	-677
ͅ	-678
͊	-679
⣼	-680
🍞	-681
̊	-682
̪	-683
̰	-684
̴	-685
̻	-686
⠘	-687
⢠	-688
⢻	-689
💯	-690
🟫	-691
̐	-692
̶	-693
̷	-694
̾	-695
͍	-696
